111111111101000111
000000000001110000
000000000000110010
111111111000110110
111111111110101100
000000001100101100
111111111010111011
000000000010110011
000000000110100000
111111111011000000
111111111010001001
111111111101111110
000000000000101100
000000000111011001
111111110110111101
111111110110110110
111111111010110001
111111101111100101
000000000101000101
000000000111111101
000000000010100011
000000000000011010
111111111011001000
111111110111011011
111111111111111101
000000000010001110
000000000000001010
111111111111101000
000000000010100101
000000001000110000
111111101010110110
000000001010101110
111111100111000111
000000000000000111
000000000100110101
000000000101111100
000000000000000000
000000000000000000
000000000000000000
000000000000000000
000000000000000000
000000000000000000
000000000000000000
000000000000000000
000000000000000000
000000000000000000
000000000000000000
000000000000000000
000000000000000000
000000000000000000
000000000000000000
000000000000000000
000000000000000000
000000000000000000
000000000000000000
000000000000000000
000000000000000000
000000000000000000
000000000000000000
000000000000000000
000000000000000000
000000000000000000
000000000000000000
000000000000000000
000000000000000000
000000000000000000
000000000000000000
000000000000000000
000000000000000000
000000000000000000
000000000000000000
000000000000000000
000000000000000000
000000000000000000
000000000000000000
000000000000000000
000000000000000000
000000000000000000
000000000000000000
000000000000000000
000000000000000000
000000000000000000
000000000000000000
000000000000000000
000000000000000000
000000000000000000
000000000000000000
000000000000000000
000000000000000000
000000000000000000
000000000000000000
000000000000000000
000000000000000000
000000000000000000
000000000000000000
000000000000000000
000000000000000000
000000000000000000
000000000000000000
000000000000000000
000000000000000000
000000000000000000
000000000000000000
000000000000000000
000000000000000000
000000000000000000
000000000000000000
000000000000000000
000000000000000000
000000000000000000
000000000000000000
000000000000000000
000000000000000000
000000000000000000
000000000000000000
000000000000000000
000000000000000000
000000000000000000
000000000000000000
000000000000000000
000000000000000000
000000000000000000
000000000000000000
000000000000000000
000000000000000000
000000000000000000
000000000000000000
000000000000000000
000000000000000000
000000000000000000
000000000000000000
000000000000000000
000000000000000000
000000000000000000
000000000000000000
000000000000000000
000000000000000000
000000000000000000
000000000000000000
000000000000000000
000000000000000000
000000000000000000
000000000000000000
000000000000000000
000000000000000000
000000000000000000
000000000000000000
000000000000000000
000000000000000000
000000000000000000
000000000000000000
000000000000000000
000000000000000000
000000000000000000
000000000000000000
000000000000000000
000000000000000000
000000000000000000
000000000000000000
000000000000000000
000000000000000000
000000000000000000
000000000000000000
000000000000000000
000000000000000000
000000000000000000
000000000000000000
000000000000000000
000000000000000000
000000000000000000
000000000000000000
000000000000000000
000000000000000000
000000000000000000
000000000000000000
000000000000000000
000000000000000000
000000000000000000
000000000000000000
000000000000000000
000000000000000000
000000000000000000
000000000000000000
000000000000000000
000000000000000000
000000000000000000
000000000000000000
000000000000000000
000000000000000000
000000000000000000
000000000000000000
000000000000000000
000000000000000000
000000000000000000
000000000000000000
000000000000000000
000000000000000000
000000000000000000
000000000000000000
000000000000000000
000000000000000000
000000000000000000
000000000000000000
000000000000000000
000000000000000000
000000000000000000
000000000000000000
000000000000000000
000000000000000000
000000000000000000
000000000000000000
000000000000000000
000000000000000000
000000000000000000
000000000000000000
000000000000000000
000000000000000000
000000000000000000
000000000000000000
000000000000000000
000000000000000000
000000000000000000
000000000000000000
000000000000000000
000000000000000000
000000000000000000
000000000000000000
000000000000000000
000000000000000000
000000000000000000
000000000000000000
000000000000000000
000000000000000000
000000000000000000
000000000000000000
000000000000000000
000000000000000000
000000000000000000
000000000000000000
000000000000000000
000000000000000000
000000000000000000
000000000000000000
000000000000000000
000000000000000000
000000000000000000
000000000000000000
000000000000000000
000000000000000000
000000000000000000
000000000000000000
000000000000000000
000000000000000000
000000000000000000
000000000000000000
000000000000000000
000000000000000000
000000000000000000
000000000000000000
000000000000000000
000000000000000000
000000000000000000
000000000000000000
000000000000000000
000000000000000000
000000000000000000
000000000000000000
000000000000000000
000000000000000000
000000000000000000
000000000000000000
000000000000000000
000000000000000000
000000000000000000
000000000000000000
000000000000000000
000000000000000000
000000000000000000
000000000000000000
000000000000000000
000000000000000000
000000000000000000
000000000000000000
000000000000000000
000000000000000000
000000000000000000
000000000000000000
000000000000000000
111111111111110111
000000000100110010
000000000001001001
111111111000000100
000000000000010101
000000000000101000
111111111000101110
111111111111111010
111111111110010001
000000000110100010
111111111001000011
111111110110110011
000000000100000011
111111111111101000
111111111100000110
000000000100110010
111111111100100010
111111111100101001
000000001010100110
000000000111100110
111111111001000111
111111111010110010
111111111011001110
000000000011011000
111111111100010111
111111111111010110
111111111011010100
000000000100010001
111111111111100101
111111111100111110
000000000110111110
111111111100110111
111111110111010111
111111111001101110
111111111011111000
111111111000000111
000000000101111001
000000000011011000
111111111000001000
000000000101011100
111111111101101101
000000000100110111
000000000010111110
000000000010110001
111111111111101010
000000000000001100
000000000010111000
111111111000011111
111111111010111110
111111111100011001
000000000000101101
000000000100000000
111111111100000010
000000000100011011
000000000011001110
000000000001100110
000000001000000001
000000000010110100
000000000101011000
000000000000100110
111111111111101011
000000000001110011
000000000101110101
000000000010011101
111111111111111100
000000000000101011
111111111111100010
000000000011000101
111111111011110001
111111110011100000
111111111100100110
111111111110010010
111111111011000100
111111111100100010
000000000101001010
000000000001110010
000000000101011111
111111111101001001
000000000011000010
000000000000100001
000000000001010011
111111111110000100
111111111111010110
000000000100010000
111111111111111101
000000000100011011
111111111101011100
111111111101000001
111111110110000100
111111111101101101
111111111101000000
111111111110010100
000000000010100011
000000000100010000
000000000010011110
000000000010000011
000000000010011110
000000000000011001
111111111011001111
000000000001110100
000000000110010000
111111111111110100
000000000100001110
111111111011100001
111111111101100100
000000000000000000
111111111111001010
000000000100101100
111111111101100000
111111111010000000
000000000001100101
000000000010101101
111111111110011000
111111111101011100
111111111010000001
111111111111100010
000000000100000011
111111111000100110
000000000001100111
111111111110010011
000000000000000010
000000000010101000
000000000011010100
000000000101101111
000000000000010101
111111111111011011
111111111110101100
111111111010111011
111111111111011001
000000000101111111
111111111101111100
111111111000000101
111111111101001000
000000000110111101
000000000010001111
111111111010000111
000000000000010000
000000000101011000
000000001000101000
111111111100101100
000000000011110001
111111111000000011
000000000001100100
000000000001111010
111111110110111110
000000000001001011
000000000010111101
000000000100110010
111111110111101100
000000000111010011
000000000010111011
000000000001010100
111111101110111001
111111111100000001
111111110110110010
111111110010001010
111111111110000011
111111111110101111
000000000100010100
000000000011010000
111111111111010111
111111111010001100
111111111010101011
000000000011001100
000000000001110010
111111111100110001
111111111100110001
111111111111000101
111111111111001011
000000000100010010
111111111100101110
000000001010001110
000000001011111111
000000000100010111
000000001010000000
000000001111010000
000000001000000100
000000000000001100
000000000011101001
000000000011000100
000000000101001010
000000000100000000
000000000110001011
000000000101110000
000000000101000100
000000000110111010
111111111110001110
000000000001011101
111111111110000011
000000000111001011
000000000000110000
000000000000101110
000000000011110100
111111111010110101
000000000001110100
111111111010101011
000000000010011100
111111110110111010
111111111000010101
000000000110001000
000000000100100101
000000000000010000
111111111101100100
000000000010001001
000000000100111111
111111111110100010
111111110100100101
111111111100110110
000000000100101101
111111111010010001
111111110110101111
111111110011110101
000000000010011100
111111111001011100
000000000000100010
000000001001101010
111111111001111010
000000000011111110
111111111100110110
000000000101100110
111111111101000100
111111111000001111
000000000001101011
000000000011000001
111111111000001010
000000000001111110
111111111100110000
111111111110111011
111111111110011011
111111111111010001
000000000011110101
000000000000101110
111111111100010011
000000000001110001
000000000111100111
111111111110010100
111111111101101111
111111110111100010
111111111001110101
000000000011110101
111111111101101100
111111111111001001
000000001000111010
111111111100001101
000000000000111110
111111110111000010
111111111000100011
111111111011001000
000000000101011000
000000000110000101
111111111010101001
111111111000101100
000000000110100110
111111111010100011
000000000010100101
000000000000010000
111111110110100010
000000000010111000
111111111111001100
000000000000100000
111111111100000100
000000000010100110
111111110111100001
111111111100010001
000000000010000101
111111111110101010
000000000000010010
111111111111001011
111111110111100000
000000000010011001
000000000100001011
111111111000010011
111111110101010111
111111111010111001
000000000111010010
000000000001110010
111111111010101110
111111111111001011
000000001000010111
000000000011000100
111111111100111101
111111111101110000
000000000000001100
111111111100001110
000000000100100011
000000000010100111
000000000011111011
000000000010001111
111111111110100110
111111111101100101
000000000001100010
000000000100101110
000000000011011010
000000000011100011
000000000010000100
111111111011100010
111111111100001101
000000000111001000
000000000001011011
000000001001110001
111111111110100011
000000000000101000
111111111010100100
111111111111100101
111111111010101110
000000000110101000
000000000000010000
111111111010000011
111111111110011000
111111111011111100
111111111101100010
000000000010010100
000000001000100000
000000000101110111
000000000001011010
111111111101111110
111111111110010010
000000000110011011
111111111110111001
111111111101101110
111111111101111001
111111111101110101
111111111100000001
000000000000101000
111111110111010101
111111111110100100
111111111101100000
111111111011100101
111111111111001101
000000000011110110
000000000001001111
111111111101111111
000000000000101011
000000000000101101
111111111110001101
000000000010110011
000000000110110000
111111111011001110
000000000011111000
000000000001001111
111111111010001010
000000000100000011
111111111011111100
111111111110000001
111111111001111100
000000000001101001
000000000100000010
000000000010111110
111111111111101010
000000000101101000
000000000000011100
000000000101100001
000000000010011001
111111111100100101
111111110101001110
000000000100111011
000000000110001110
000000000000110010
000000000100111010
000000001000101101
000000000000001101
111111111011101000
111111111110000010
111111111101111111
111111111011010000
000000000000000100
111111111010001010
000000000001001011
111111111010001010
111111111111000100
111111111111010000
111111111010111110
111111111100001011
111111111011111111
111111111101111011
111111111110011001
111111111011010100
111111111001010111
111111111011100001
111111111100010010
000000000100110000
111111111101010000
111111111001110111
000000000100100110
111111111010100101
111111111110000010
111111111111001000
000000000000000100
000000000000010011
111111111111011001
111111111110110111
111111111100110110
000000000100001011
000000001010100011
000000000110100011
000000000001011011
000000000111010010
000000000010000011
000000000001010011
000000001000001011
111111111110111111
111111111110000110
000000000111100101
000000000001100001
000000000100111010
000000000000110110
111111111010111011
111111111111100111
000000000000110101
000000000000100101
111111111110110101
000000000010001101
000000000010100110
000000000001111100
000000000101111101
000000000011010000
000000000001000110
000000001000001010
111111111111101011
000000000011111001
000000000111011110
000000001000011001
000000000111110100
000000000110000000
111111111111011111
000000000000101001
111111111110001000
000000000110110101
000000000000101101
000000000001111010
000000000110011101
111111111001011100
111111111100100000
111111111110101000
000000000011010111
111111111011101110
000000000100100010
000000000000101010
111111110101011001
000000000110101111
111111111110101110
111111111110010001
111111111000110111
000000000001111111
000000000101000010
000000000001101010
000000000000000110
000000000010110001
111111111010000110
000000000000011100
000000000100111111
000000000000010100
111111111100011100
000000000010000100
111111111111101101
000000000001110000
111111111100000001
000000000010111101
000000000111100110
000000000100001100
000000000100101001
000000000010001011
111111111111111110
000000000110101010
111111111111011100
000000001000100101
000000000101101110
000000000001001101
111111111010101010
000000000001000100
000000000100000010
111111111110101101
111111111100010010
000000000010110011
111111111111100110
000000000001000110
111111111110000100
000000001000000101
111111111111110100
000000000001000101
000000000011100111
111111111010010001
111111111101111110
000000000110101110
000000000001011111
000000000000001100
000000000101100111
000000000001010100
000000000001011101
000000000111111110
000000001001000000
000000001000001011
000000001001100001
111111111110010100
111111111110011000
111111111100110010
111111111110101100
000000000010010001
111111111100101000
111111110111010100
000000000010110001
000000000010101000
000000000000101000
000000000011001010
000000000000101000
000000000000101001
111111111101011011
111111111011100010
111111110100101011
000000000010100110
000000000100000010
111111111110010001
111111111011111001
000000000001010100
000000000111110011
111111111011001100
111111111001001010
111111111110000110
000000000100011011
111111111110111110
111111111110000000
000000000001000011
000000000000100100
000000000011000001
111111111110000010
000000000011000100
111111111101011011
111111111010110001
000000000000000101
111111111111100100
000000000110111010
111111111111011000
000000000001100001
000000000010100011
000000001001111001
000000000110000011
000000000111111001
111111111010101001
111111111000000100
111111111111010001
111111111100110010
000000000100100011
111111111011010011
000000000110010110
111111111111001111
111111111000011000
111111111110101011
111111111010111100
000000000011001100
000000000001101110
111111111011101101
000000000110110010
111111111100011110
111111111011001101
000000000011101100
111111110110011001
111111111011110011
000000000001110000
000000000100110000
000000000000001110
111111111011000010
111111111011101001
000000000000011110
000000000010110011
111111111100111110
000000000001001000
000000000000000011
000000000010111001
000000000000000100
111111110101000101
111111111111110001
111111111011010011
111111111110010011
111111111110100100
111111111100110010
000000000000111111
111111111111111110
111111111110100111
000000000010110010
111111111111100000
111111111111001101
111111111110110010
111111111011100101
111111111011011110
000000000010000110
111111111100100011
111111111111001000
000000000000001111
111111111011001101
000000000000110011
111111111111111001
111111111110011000
111111111111110010
111111111101010101
111111111110110001
111111111110100111
111111111110110000
000000000000101000
111111111111000010
111111111111100111
111111111111010110
111111111101001001
000000000001000011
111111111111100001
111111111100010001
000000000010000110
111111111101011101
111111111110000010
111111111101111010
000000000101000001
000000000000111011
111111111111011001
111111111110010101
111111111100011010
000000000011000101
000000000001111011
000000000000000111
000000000011001101
000000000010110011
000000000011110001
111111111101111111
111111111110100101
000000000001000000
111111111100001010
111111111110010110
000000000000010000
000000000000010000
111111111011110100
111111111110100011
000000000000100111
111111111101001101
000000000000010110
000000000001010111
111111111101111011
000000000100000111
000000000000001011
111111111111110011
000000000001000111
111111111101010100
111111111110001111
111111111100101010
000000000001101111
111111111101011001
111111111111110101
111111111111100111
000000000011100111
111111111111000110
111111111101011110
111111111110111100
111111111101000111
000000000000001010
111111111111011110
111111111101110111
000000000010011111
111111111111110111
000000000001010110
000000000000011010
000000000000000010
111111111111011100
111111111111000001
000000000000100101
111111111111100001
000000000000011011
111111111110101010
111111111110010111
111111111101110100
000000000001011100
111111111111001110
000000000000001111
000000000000011111
111111111101000011
111111111101100001
000000000000110011
111111111110011000
111111111110000100
111111111110100001
111111111001101011
111111111110001100
111111111101111011
111111111000001110
111111110111110000
000000000010100111
111111101110110100
111111110111011110
000000000001011001
111111111111100001
111111111110100011
111111111111100010
111111111111001011
111111111101010001
111111111111010110
111111111111000110
111111111110110010
111111111110000001
111111111111101011
000000000000001011
111111111011111101
000000000010100101
111111111111100110
111111111110110111
000000000001101110
111111111110110101
111111111111010101
111111111101110001
111111111111001100
000000000001010010
000000000001000110
111111111101000011
000000000100011011
111111111110111000
111111111101001111
000000000000001101
000000000000011001
000000000001101010
000000000001110111
111111111101010100
000000000000000110
000000000001010010
000000000000010111
000000000001110001
000000000111101000
000000000101001111
000000001001001101
000000001000110111
000000001001001010
000000001011110111
000000000101011100
000000001000010000
000000001000101101
111111111101111000
111111111110101111
000000000000001000
000000000000001111
111111111111110010
111111111110100000
111111111100001101
000000000001000101
000000000000101001
111111111111010101
000000000000001001
111111111111011000
111111111110101000
000000000000000010
111111111110110010
000000000010011100
000000000001101000
000000000000010111
111111111010100001
111111111101011000
000000000000011000
000000000010001000
000000000000101000
111111111111110111
111111111111001001
111111111111000010
111111111011000100
111111111101101011
000000000010000001
000000000000001011
111111111111101011
111111111111001111
000000000000000011
000000000000101110
000000000010110011
111111111111110101
000000000000100001
111111111001100000
000000000000110101
111111111111000011
111111111111101100
000000000000111100
111111111110111101
000000000000011000
111111111100101111
111111111110000000
111111111111101111
111111111111101011
000000000001001010
111111111101111101
111111111111100000
111111111101100010
111111111111101110
111111111111000100
000000000001111111
000000000000010001
000000000001011001
111111111110011001
000000000000101111
111111111110101101
111111111111110110
111111111111001001
000000000011010001
000000000000001000
111111111101000001
111111111101111100
111111111101011110
000000000000010011
000000000000000110
111111111101100001
111111111110101011
111111111111101101
000000000011000000
000000000110011000
000000000110011110
000000000100101110
000000000111111110
000000001001100110
000000000000111001
000000000101001001
000000000100111110
111111111110000011
000000000000100100
111111111111110101
111111111110101000
111111111111011100
000000000000000111
111111111101110010
000000000000000110
111111111101101101
111111111111011000
000000000001100011
111111111100000100
111111111111000001
000000000000100100
000000000000010100
111111111100001100
111111111111001110
000000000011010101
111111111000111110
000000000010000010
111111111101010001
000000000000101010
111111111101101011
000000000000011010
000000000001000001
000000000000010000
000000000001010100
111111111100111010
111111111011110011
111111111111110000
111111111011001100
000000000001000011
111111111110011110
111111111110110000
000000000000110101
000000000010111111
000000000001000010
111111111111010010
111111111111010000
111111111111111000
000000000000110011
111111111101111110
000000000000111011
000000000000011001
000000000000100111
000000000000000011
111111111110100011
000000000000000110
111111111111100101
111111111111011111
111111111111001010
000000000000101001
111111111110010100
000000000000000011
111111111111010010
000000000000010110
000000000000000011
111111111111110001
111111111110110001
000000000000011010
000000000000010010
000000000000010111
000000000000100101
111111111110101110
111111111110100101
111111111111010110
111111111111110001
111111111111111100
111111111111110111
111111111111110101
000000000000000000
111111111111111100
111111111111111000
000000000000000011
000000000000001101
000000000000000010
000000000000000111
000000000000001010
000000000000000100
000000000000000110
111111111111111000
111111111111110001
111111111111110000
111111111111110000
111111111111110011
111111111111110111
000000000000000001
111111111111111110
000000000000001001
111111111111111100
111111111110111100
000000000000000011
111111111111010001
000000000001100110
000000000001111001
000000000011011000
000000000000100011
000000000000101010
000000000011111110
000000000100000110
000000000011010101
111111111111110110
000000000000000111
000000000000010101
000000000000001001
000000000000000111
111111111111111111
000000000000000100
000000000000000011
000000000000000001
111111111111111011
111111111111111000
000000000000000001
000000000000000111
111111111111011010
111111111111010110
000000000000100000
111111111111101110
000000000001100010
000000000000001110
111111111111100100
000000000010101011
000000000000010010
111111111111100111
111111111111010001
111111111111110001
111111111111001111
000000000000101100
000000000000111010
111111111111111110
000000000000111010
111111111111110000
000000000010011010
111111111110000101
000000000011010111
000000000100010101
000000000010001101
000000000010010111
000000000000001010
111111111111111111
000000000000000110
111111111111110110
111111111111111110
111111111111110100
111111111111111011
000000000000000010
111111111111110000
111111111111111101
000000000000001000
000000000000001001
000000000001010001
000000000001101011
111111111111110000
000000000011010110
000000000001011111
111111111111101001
111111111111111001
111111111111011010
111111111110111111
000000000000011100
111111111111100011
000000000000011111
111111111111110000
111111111111111010
111111111111111110
111111111111111011
000000000000000101
111111111111111111
000000000000001000
000000000000001000
111111111111111000
111111111111111010
111111111111111101
111111111111110100
111111111111111110
111111111111111111
000000000000000011
000000000000010001
111111111111111011
111111111111111011
111111111111111010
000000000000000010
000000000000000001
111111111111111011
111111111111111111
111111111111110111
000000000000001111
000000000000000111
111111111111111110
111111111111111111
111111111111110111
111111111111111101
111111111111111000
111111111111111001
000000000000000000
000000000000000000
111111111111111111
000000000000000110
000000000000010001
000000000000000101
000000000000000000
111111111111111010
111111111111110000
111111111111111010
111111111111110110
111111111111110100
000000000000001010
000000000000000000
000000000000000110
000000000000001111
111111111111111110
000000000000001111
000000000000000110
000000000000001101
000000000000000110
111111111111111110
000000000000000000
000000000000000111
111111111111111011
000000000000010000
111111111111111111
111111111111110111
000000000000001001
000000000000001101
000000000000001010
000000000000001100
000000000000000010
000000000000000001
000000000000000110
000000000000000010
111111111111111100
111111111111111000
111111111111111111
111111111111110010
000000000000010001
000000000000001110
000000000000001100
000000000000010001
000000000000001010
000000000000001000
000000000000000000
000000000000000000
111111111111111101
111111111111111110
000000000000001001
000000000000000000
000000000000000000
000000000000000000
000000000000000000
000000000000000000
000000000000000000
000000000000000000
000000000000000000
000000000000000000
000000000000000000
000000000000000000
000000000000000000
000000000000000000
000000000000000000
000000000000000000
000000000000000000
000000000000000000
000000000000000000
000000000000000000
000000000000000000
000000000000000000
000000000000000000
000000000000000000
000000000000000000
000000000000000000
000000000000000000
000000000000000000
000000000000000000
000000000000000000
000000000000000000
000000000000000000
000000000000000000
000000000000000000
000000000000000000
000000000000000000
000000000000000000
000000000000000000
000000000000000000
000000000000000000
000000000000000000
000000000000000000
000000000000000000
000000000000000000
000000000000000000
000000000000000000
000000000000000000
000000000000000000
000000000000000000
000000000000000000
000000000000000000
000000000000000000
000000000000000000
000000000000000000
000000000000000000
000000000000000000
000000000000000000
000000000000000000
000000000000000000
000000000000000000
000000000000000000
000000000000000000
000000000000000000
000000000000000000
000000000000000000
000000000000000000
000000000000000000
000000000000000000
000000000000000000
000000000000000000
000000000000000000
000000000000000000
000000000000000000
000000000000000000
000000000000000000
000000000000000000
000000000000000000
000000000000000000
000000000000000000
000000000000000000
000000000000000000
000000000000000000
000000000000000000
000000000000000000
000000000000000000
000000000000000000
000000000000000000
000000000000000000
000000000000000000
000000000000000000
000000000000000000
000000000000000000
000000000000000000
000000000000000000
000000000000000000
000000000000000000
000000000000000000
000000000000000000
