000000000011011101
000000000000011010
111111111111100011
111111111111011010
111111111110101101
111111111010001001
111111111000100110
111111111100011001
111111111100011000
000000000010101010
111111110101100000
000000001010100000
000000000101110001
111111111010011110
000000000111100001
000000000111010001
000000000111111110
111111111101111000
111111111010100111
111111111111110101
000000000010001000
000000000010001100
000000000000111000
000000000001110010
000000000001110001
111111111111000100
000000000010001011
111111110000111101
111111110001000000
111111110111100010
111111110011011001
000000011110010101
000000000011010111
111111111010011000
000000000111011010
111111100000010001
000000000000000000
000000000000000000
000000000000000000
000000000000000000
000000000000000000
000000000000000000
000000000000000000
000000000000000000
000000000000000000
000000000000000000
000000000000000000
000000000000000000
000000000000000000
000000000000000000
000000000000000000
000000000000000000
000000000000000000
000000000000000000
000000000000000000
000000000000000000
000000000000000000
000000000000000000
000000000000000000
000000000000000000
000000000000000000
000000000000000000
000000000000000000
000000000000000000
000000000000000000
000000000000000000
000000000000000000
000000000000000000
000000000000000000
000000000000000000
000000000000000000
000000000000000000
000000000000000000
000000000000000000
000000000000000000
000000000000000000
000000000000000000
000000000000000000
000000000000000000
000000000000000000
000000000000000000
000000000000000000
000000000000000000
000000000000000000
000000000000000000
000000000000000000
000000000000000000
000000000000000000
000000000000000000
000000000000000000
000000000000000000
000000000000000000
000000000000000000
000000000000000000
000000000000000000
000000000000000000
000000000000000000
000000000000000000
000000000000000000
000000000000000000
000000000000000000
000000000000000000
000000000000000000
000000000000000000
000000000000000000
000000000000000000
000000000000000000
000000000000000000
000000000000000000
000000000000000000
000000000000000000
000000000000000000
000000000000000000
000000000000000000
000000000000000000
000000000000000000
000000000000000000
000000000000000000
000000000000000000
000000000000000000
000000000000000000
000000000000000000
000000000000000000
000000000000000000
000000000000000000
000000000000000000
000000000000000000
000000000000000000
000000000000000000
000000000000000000
000000000000000000
000000000000000000
000000000000000000
000000000000000000
000000000000000000
000000000000000000
000000000000000000
000000000000000000
000000000000000000
000000000000000000
000000000000000000
000000000000000000
000000000000000000
000000000000000000
000000000000000000
000000000000000000
000000000000000000
000000000000000000
000000000000000000
000000000000000000
000000000000000000
000000000000000000
000000000000000000
000000000000000000
000000000000000000
000000000000000000
000000000000000000
000000000000000000
000000000000000000
000000000000000000
000000000000000000
000000000000000000
000000000000000000
000000000000000000
000000000000000000
000000000000000000
000000000000000000
000000000000000000
000000000000000000
000000000000000000
000000000000000000
000000000000000000
000000000000000000
000000000000000000
000000000000000000
000000000000000000
000000000000000000
000000000000000000
000000000000000000
000000000000000000
000000000000000000
000000000000000000
000000000000000000
000000000000000000
000000000000000000
000000000000000000
000000000000000000
000000000000000000
000000000000000000
000000000000000000
000000000000000000
000000000000000000
000000000000000000
000000000000000000
000000000000000000
000000000000000000
000000000000000000
000000000000000000
000000000000000000
000000000000000000
000000000000000000
000000000000000000
000000000000000000
000000000000000000
000000000000000000
000000000000000000
000000000000000000
000000000000000000
000000000000000000
000000000000000000
000000000000000000
000000000000000000
000000000000000000
000000000000000000
000000000000000000
000000000000000000
000000000000000000
000000000000000000
000000000000000000
000000000000000000
000000000000000000
000000000000000000
000000000000000000
000000000000000000
000000000000000000
000000000000000000
000000000000000000
000000000000000000
000000000000000000
000000000000000000
000000000000000000
000000000000000000
000000000000000000
000000000000000000
000000000000000000
000000000000000000
000000000000000000
000000000000000000
000000000000000000
000000000000000000
000000000000000000
000000000000000000
000000000000000000
000000000000000000
000000000000000000
000000000000000000
000000000000000000
000000000000000000
000000000000000000
000000000000000000
000000000000000000
000000000000000000
000000000000000000
000000000000000000
000000000000000000
000000000000000000
000000000000000000
000000000000000000
000000000000000000
000000000000000000
000000000000000000
000000000000000000
000000000000000000
000000000000000000
000000000000000000
000000000000000000
000000000000000000
000000000000000000
000000000000000000
000000000000000000
000000000000000000
000000000000000000
000000000000000000
000000000000000000
000000000000000000
000000000000000000
000000000000000000
000000000000000000
000000000000000000
000000000000000000
000000000000000000
000000000000000000
000000000000000000
000000000000000000
000000000000000000
000000000000000000
000000000000000000
000000000000000000
000000000101010001
111111111110000010
111111111000100110
111111111001000000
000000000000000111
000000000000011010
000000000000010101
111111111110011000
111111111000010111
111111110111111111
000000000011001000
111111111001000011
111111111111111111
000000000011100100
111111110110100100
111111111010001000
000000000100001011
000000000110010010
000000000011110010
111111110110101111
111111111111000101
000000000010000110
000000000000011101
111111110111111001
000000000001101000
111111111010110100
111111111100110111
000000000100101110
000000000000001011
000000001011111000
000000000001011110
111111111000010111
111111111011010111
000000000000111000
000000000001001111
111111111111000000
111111111101000011
111111111110100001
000000000011001110
111111111101110100
111111111101010010
000000000010101110
000000000001010001
000000000000001011
000000000010000100
111111111000011001
111111111000111100
000000000010001011
111111110111100000
000000000110110100
000000000000011110
000000000001000000
111111111110100110
000000000001001100
000000000111011100
000000000111111100
111111111110001110
111111111111010011
000000000010111110
111111111111011010
000000000100101001
000000000101000110
000000000011001000
111111111110001001
111111111100111110
000000000001011000
111111111111011001
000000000011111001
111111110111011000
111111110011100101
000000000011110100
000000000011011111
000000001111011011
111111111001100110
000000000000001001
000000001010000011
111111111101101111
000000000000000001
000000000110000110
000000000000110100
000000000100000111
000000000101101101
000000000100000111
111111111110011001
000000000010010011
111111111111010111
111111111010010000
000000000010000110
111111110110101111
000000000001011001
000000000101100100
000000000000000110
111111111101010011
111111111011010101
111111111011000101
000000000110100001
000000000000010110
111111111101101110
111111111011000101
000000000111111100
000000000100100101
000000001000000001
000000000000110001
000000000000101110
000000000011011011
000000000011100001
000000000100010011
000000000110000000
111111111100011111
000000001000001100
111111111101001010
000000000001110101
111111111101000011
111111111111011101
111111111100001000
111111111111001111
000000000101001100
111111111011000110
000000000011000011
000000000001011101
111111111000010100
000000000000100111
111111111001001110
000000001000010010
000000000001011110
000000001100001101
000000000000010110
000000000110101101
111111110001010001
000000000011110011
111111111000101001
111111111101011100
000000000111011110
000000000100100110
000000000001001011
111111111110011001
000000000111100110
111111111010110000
000000000101111101
111111110110101011
111111111110100001
000000001010000001
111111110111011000
111111111100000101
000000000011000111
000000000011000000
111111111110010000
000000000001000010
000000000010101001
111111111110011000
000000000110100101
111111111000000111
000000000101010110
111111111100000111
111111111101000011
111111111110110010
000000000000000101
000000000111001111
111111111101100100
000000000010101111
000000000010001100
000000000011111111
000000000001101111
000000000010101000
111111111011010111
000000000110001010
111111111010010010
111111111111100101
111111111110011111
000000000010010000
111111111110010100
000000001001001001
000000000100010001
000000000110000001
000000000111011011
000000000011010000
000000000101000001
000000001101000100
000000001000010101
000000001100000000
000000000010000111
000000000011010110
000000000101001111
000000000010000110
000000000000010010
000000000100000100
000000000100101000
000000000110111101
000000000000110001
000000000010111110
000000000000011010
111111110111111000
000000000110101000
000000000010010011
111111111110011100
000000000010101101
111111111011101000
000000000000101010
111111111011100101
000000000000000001
000000000011001101
111111110110111111
000000000101011010
000000000100111011
000000000000000110
111111110110101010
000000000100101101
000000000011101111
000000001001101001
111111111100111010
111111111110011110
111111111000011101
000000000001100001
111111111101011010
000000000000111110
111111111001000111
000000000110110101
000000000101111000
111111110011110111
111111111001010110
111111111101011111
111111111111100100
111111110010010101
000000001101000111
111111110000101001
000000000001110111
111111111110111000
000000000000010100
111111111100101010
111111111110010010
111111111111001101
111111110000001100
000000001001111101
000000000001101110
111111111110100010
000000001010101011
000000000111010101
111111111110011111
000000000011100100
000000000000101011
111111111111011000
000000000001100000
000000000011100000
111111110011000100
000000000011111111
111111111100110100
000000000001001010
000000000110010111
000000000001000000
111111111011010100
000000000100000010
000000000111100000
000000000000100001
111111110110110101
000000000110110000
000000000011110010
111111111010000111
111111111101010100
000000000001011111
111111111100101001
000000000000110000
111111111101100101
000000000011011011
111111111111110100
000000000100010001
000000000001011000
000000000000010100
000000000100001001
111111111100000111
000000000010001000
000000001000001010
000000000001000001
000000000100111100
000000000000001110
000000000100100010
111111111110110110
000000000001011101
111111111110010011
111111111011101000
111111111100011001
000000000001100001
111111111000001110
000000000101001001
000000000001111011
111111111110010001
111111111111111110
111111111100000101
000000000011010010
111111111101100100
000000000001100000
000000000000101011
000000000000001010
000000000100011111
111111111110001100
000000000100010111
111111111101010011
111111111111111100
111111111101001101
111111111101111001
111111111101011000
111111111111010000
111111111110111111
000000000010111000
111111111011100100
111111111101101111
000000000001110101
111111111101101100
111111111101110110
000000000010011000
000000000000110101
111111111101100111
111111111110010000
000000000000101001
000000000011010010
000000000011011110
111111111000010111
111111111011111101
000000000000001111
111111111101011010
111111111111101011
000000000001001100
111111111111100111
000000000000001101
000000000010001111
000000000001001011
111111111001111100
111111111101110010
111111111111110000
111111111110011000
111111111110101101
000000000011110010
000000000001101101
111111111111110101
111111111111100010
111111111101001110
111111111110110001
000000000001100000
111111111010111111
111111111110011111
111111111111110101
111111111111110101
000000000100001101
111111111111001001
111111111111111001
111111111100101011
000000000110101110
000000000000010100
111111111010010100
111111111110111101
111111111101010001
000000000101100110
111111111111010111
111111111100111001
111111111111000100
111111111011110101
000000000010011001
111111111111100100
111111111100111101
111111111011010011
111111111001111100
111111111001111111
111111111101011010
111111111101010110
000000000010001110
111111111101001111
000000000011000101
111111111011101110
111111111101010011
000000000110000000
111111110110011100
000000000000000001
000000000000010000
000000000000111010
000000000000010110
000000000010010100
111111111100111110
000000000001010001
111111111110100010
000000000001010000
111111111111010111
000000000101001111
111111111101000010
111111111111001100
111111111111010101
111111111101010001
111111111010010101
000000000100110000
111111111100110010
000000000000110111
111111111010100101
000000000010000110
000000000000011100
111111111011010011
000000000000000011
000000000000010010
111111111101110001
000000000101110110
000000000111100111
000000000010111110
000000000100011100
000000000010101100
000000000100110010
111111111101101010
000000000010111000
000000000110011111
111111111110111100
000000000000001111
111111111000010110
000000000000110011
111111111110100010
111111111111000110
111111111011011010
000000000110000010
111111111111100010
000000000100100010
000000000010100110
000000000010001010
000000001010010111
000000000101111110
000000000011100011
000000000011110011
000000000101110101
000000000000100100
000000000011111110
000000000000100001
000000000110110100
111111111110101101
111111111100110011
111111111111011001
111111111110100001
000000000001101110
111111111011011110
111111111000111001
111111111101011001
111111111110110111
111111111111001010
111111111110110011
000000000010100000
111111111101100001
000000000010100110
000000001000111101
000000000000110010
000000000001100001
111111111110010011
111111111111111100
111111111111110000
000000000001001101
111111111111001101
000000000010000011
111111111100010000
111111111011100010
000000000000111010
111111111001000101
000000000100100100
000000000000001010
000000000001111101
000000001000000110
000000000010011100
111111111111110011
111111111111001001
000000000010001110
111111111011111101
000000000011001101
111111111111001101
000000000011101011
000000000000000011
000000000011100000
111111111101100101
000000000000111110
000000000010010011
111111110011101000
000000000000000110
000000000010110010
111111111101111110
000000000001000100
111111111011000100
111111111101101011
111111111110001110
000000000100000011
000000000000010011
000000000000000000
000000000010010000
111111111111110101
000000000010110111
111111111111000011
000000000000110111
000000000100111000
000000000110101110
000000000011010101
111111111110010010
000000000101101001
000000000111011100
000000000000010001
000000000001100010
111111111110100110
000000000001111001
000000000000011011
000000000001111000
000000000000101000
111111110110100010
111111111100100101
000000000011111001
111111111110000100
111111111111010100
000000000110010100
000000000000000010
111111111000001100
111111111011011101
000000000010010010
111111111101010101
111111110110110110
111111111111011001
000000000010011111
111111111001000010
000000000001011010
111111111111110000
111111111101110010
111111111101101001
000000000011011110
111111111110010000
111111111111101011
000000000100110100
000000000100111110
000000000101101100
000000000001011011
111111111111001011
000000000001100010
111111111101011001
000000000010010101
111111111101100001
000000000010111101
000000000100000011
000000000010011100
000000000011001101
111111111111000101
111111111100111110
000000000010101101
000000000100010101
000000000000010100
000000001000000001
111111111010001001
111111111110001110
111111111111010111
111111111100010110
000000000010010001
000000000000001100
000000000000110001
000000000010101111
111111111110110110
111111111111001100
111111111100001001
111111111111110100
111111111110100110
000000000001001101
111111111011101010
000000000101110001
111111111101100000
111111111111101011
111111111010011000
000000000000011110
000000000000111100
111111111110111100
111111111101110110
000000000010001010
000000000010011110
000000000001111111
111111111110001011
111111111101001010
111111111101100110
000000000110100000
000000000001100010
111111111111000100
000000001000000110
000000000010111101
000000000011001001
000000000010011111
000000000000001010
000000000000000010
111111111111100101
111111111111110101
111111111111111011
111111111111111001
000000000000001100
000000000000001101
000000000000001111
000000000000000010
000000000000000111
000000000000000001
111111111111111010
111111111111110101
111111111111110000
000000000000000000
000000000000000010
000000000000000000
000000000000000111
000000000000001011
000000000000011110
000000000000000100
111111111111111010
000000000000000111
000000000000100000
111111111111101011
000000000000000001
000000000000000101
111111111111110111
111111111111111101
111111111111111010
000000000000000110
000000000000001000
111111111111101001
111111111111111010
111111111111100110
000000000000011111
111111111111111011
000000000000000010
000000000000010110
111111111111111111
000000000000001101
111111111111111111
000000000000000010
111111111111110101
000000000000000001
111111111111110100
111111111111110101
000000000000010101
000000000000000001
000000000000001110
111111111111011100
111111111111111110
000000000000001100
111111111111110111
111111111111111001
000000000000001100
000000000000000101
000000000000001000
000000000000001001
000000000000001010
111111111111111010
111111111111110010
000000000000000010
000000000000000101
000000000000010010
000000000000001000
000000000000010010
111111111111111100
000000000000001010
000000000000000000
111111111111111001
000000000000010101
000000000000000110
000000000000001111
111111111111111011
000000000000000110
111111111111111001
111111111111101000
111111111111110111
000000000000001001
000000000000001001
111111111111111010
111111111111111011
000000000000000000
111111111111111110
111111111111111111
111111111111111001
111111111111111000
111111111111110001
111111111111110111
111111111111111101
000000000000001010
000000000000000000
111111111111111011
111111111111101111
111111111111111010
111111111111110110
111111111111111001
111111111111111110
111111111111111000
111111111111110001
111111111111110100
111111111111111100
111111111111110011
000000000000000001
000000000000000010
111111111111111111
000000000000001100
000000000000000011
000000000000000000
000000000000001000
000000000000001101
000000000000001110
000000000000001010
111111111111111100
111111111111110000
111111111111110010
111111111111111111
000000000000001010
111111111111111101
111111111111111101
111111111111111100
000000000000001000
111111111111111001
111111111111111001
111111111111111110
000000000000001100
111111111111110111
111111111111111101
111111111111111001
111111111111111001
111111111111111010
000000000000000111
111111111111101011
111111111111110111
111111111111111011
111111111111100100
000000000000001100
111111111111111101
111111111111110101
111111111111100101
111111111111110111
000000000000010010
000000000000000111
000000000000000011
000000000001000010
111111111111111101
111111111111111100
000000000000001000
000000000000011001
000000000000000011
000000000000101111
000000000000010010
000000000000001011
000000000000010010
000000000000001000
000000000000000110
000000000000000001
111111111111011011
000000000000000101
000000000000000101
000000000000001011
000000000000001000
111111111111111010
000000000000000101
000000000000000001
111111111111111011
000000000000001011
000000000000000000
111111111111111010
000000000000000011
000000000000000001
000000000000000001
111111111111110110
111111111111111001
111111111111111100
000000000000000000
000000000000000001
111111111111111010
000000000000000001
000000000000001011
000000000000001110
000000000000001010
111111111111110001
111111111111111011
000000000000011101
000000000000000000
000000000000011001
000000000000000010
000000000000000001
000000000000001000
000000000000000100
111111111111110101
111111111111011111
000000000000010101
111111111111110101
000000000000001110
000000000000000010
000000000000001100
111111111111111101
000000000000001000
000000000000000000
111111111111111010
000000000000010110
000000000000001101
111111111111111111
000000000000000111
000000000000000111
111111111111110011
111111111111101111
000000000000000011
000000000000000001
111111111111101111
000000000000000000
000000000000000000
000000000000000001
111111111111111000
111111111111111001
111111111111110001
000000000000000110
111111111111101101
000000000000010000
000000000000000000
111111111111101110
000000000000101001
111111111111111110
111111111111101001
000000000000010001
111111111111111001
000000000000001111
111111111111110110
000000000000000110
000000000000001000
111111111111111110
000000000000000011
000000000000100100
111111111111101110
111111111111101101
111111111111110111
000000000000000000
000000000000000000
000000000000011101
111111111111111010
000000000000000111
000000000000000100
000000000000000001
000000000000000000
111111111111111100
111111111111110000
000000000000001001
111111111111111100
111111111111111101
111111111111110001
000000000000001100
111111111111110011
000000000000001101
000000000000001000
111111111111110111
111111111111111001
111111111111101001
111111111111111100
111111111111111111
000000000000001101
111111111111110111
000000000000000010
000000000000000000
000000000000001011
000000000000000001
111111111111110111
000000000000000111
111111111111111111
111111111111111011
111111111111100111
000000000000000000
111111111111111001
111111111111100101
000000000000001001
111111111111110110
000000000000001000
000000000000001001
111111111111111100
000000000000001111
000000000000001001
000000000000001001
000000000000000101
000000000000000100
000000000000001101
111111111101101000
000000000000011001
000000000000111000
111111111111100000
000000000000010011
000000000000001111
111111111100101011
000000000001100111
111111111100111001
000000000001000100
111111111101110110
111111111111110100
000000000000000011
111111111111111110
000000000000000100
000000000000000001
000000000000000011
000000000000000111
000000000000000110
000000000000000100
000000000000001011
000000000000000111
000000000000000111
000000000000001000
000000000000001000
000000000000000110
111111111111111100
000000000000000000
000000000000000100
000000000000000110
111111111111110111
111111111111111101
000000000000001101
000000000000000010
000000000000000011
000000000000000100
111111111111110111
111111111111111110
111111111111101110
111111111111001101
000000000011001110
000000000011000111
000000000100000101
000000000000010000
000000000100101011
000000000101111010
000000000101000000
000000000000110111
111111111111111110
000000000000000010
111111111111110110
000000000000000011
111111111111111110
111111111111111110
111111111111111100
111111111111111111
111111111111110110
111111111111111010
111111111111110101
000000000000000101
111111111111010001
111111111111101010
000000000000110110
111111111111000100
000000000000101011
111111111111011110
000000000000110111
000000000001010110
111111111111010110
000000000000000001
111111111111111110
000000000000010000
000000000001010000
111111111111000111
000000000001010001
111111111111000100
000000000001000111
000000000001000100
111111111111101101
000000000000110001
000000000001100010
000000000101111011
000000000110110000
000000000100011100
000000000000001010
000000000000000011
111111111111111010
000000000000000001
111111111111111011
000000000000000001
111111111111111000
111111111111110110
000000000000000110
000000000000000011
000000000000000001
000000000000001011
000000000001010011
111111111111000110
000000000000100000
000000000000011011
000000000000111011
000000000000010011
000000000000110001
111111111111110111
000000000001000010
000000000000000010
111111111111100001
000000000000011011
000000000000001000
000000000000001011
000000000000001011
000000000000001001
000000000000000010
000000000000001100
000000000000001100
000000000000001010
111111111111111001
000000000000000000
000000000000000100
000000000000000000
000000000000000001
000000000000000010
111111111111111101
000000000000000100
000000000000000001
000000000000000101
111111111111111110
000000000000000010
000000000000000110
000000000000000101
000000000000000000
111111111111111100
000000000000000110
000000000000000011
111111111111111111
000000000000000110
111111111111111110
111111111111111011
111111111111111010
111111111111111111
000000000000000000
000000000000000011
000000000000000010
111111111111111111
000000000000000110
111111111111111100
111111111111111001
000000000000000110
111111111111110111
111111111111111000
111111111111111001
111111111111111101
000000000000000111
000000000000001011
111111111111111011
000000000000000100
111111111111111110
111111111111111101
111111111111111010
000000000000000110
111111111111111111
111111111111111001
111111111111110010
111111111111111001
000000000000000000
111111111111111110
000000000000000101
000000000000000010
000000000000000000
000000000000000010
111111111111111111
000000000000001111
000000000000000000
000000000000001001
000000000000000000
111111111111111010
111111111111110111
111111111111110011
111111111111111001
111111111111110110
000000000000000100
000000000000001010
000000000000001101
000000000000000101
111111111111111101
000000000000000000
000000000000000011
111111111111111110
111111111111110101
111111111111110101
111111111111111010
111111111111110101
000000000000000000
000000000000000000
000000000000000000
000000000000000000
000000000000000000
000000000000000000
000000000000000000
000000000000000000
000000000000000000
000000000000000000
000000000000000000
000000000000000000
000000000000000000
000000000000000000
000000000000000000
000000000000000000
000000000000000000
000000000000000000
000000000000000000
000000000000000000
000000000000000000
000000000000000000
000000000000000000
000000000000000000
000000000000000000
000000000000000000
000000000000000000
000000000000000000
000000000000000000
000000000000000000
000000000000000000
000000000000000000
000000000000000000
000000000000000000
000000000000000000
000000000000000000
000000000000000000
000000000000000000
000000000000000000
000000000000000000
000000000000000000
000000000000000000
000000000000000000
000000000000000000
000000000000000000
000000000000000000
000000000000000000
000000000000000000
000000000000000000
000000000000000000
000000000000000000
000000000000000000
000000000000000000
000000000000000000
000000000000000000
000000000000000000
000000000000000000
000000000000000000
000000000000000000
000000000000000000
000000000000000000
000000000000000000
000000000000000000
000000000000000000
000000000000000000
000000000000000000
000000000000000000
000000000000000000
000000000000000000
000000000000000000
000000000000000000
000000000000000000
000000000000000000
000000000000000000
000000000000000000
000000000000000000
000000000000000000
000000000000000000
000000000000000000
000000000000000000
000000000000000000
000000000000000000
000000000000000000
000000000000000000
000000000000000000
000000000000000000
000000000000000000
000000000000000000
000000000000000000
000000000000000000
000000000000000000
000000000000000000
000000000000000000
000000000000000000
000000000000000000
000000000000000000
