000000000001011100000000000010100000000000011100000000000001110100000000000011010000000000010010
000000000000101100000000000110110000000000000000000000000000011100000000000011110000000000011000
000000000000010100000000000001010000000000001111000000000000010000000000000111010000000000001011
000000000001100100000000000101100000000000001100000000000001000000000000000001110000000000011001
000000000000101100000000000010110000000000011100000000000001011000000000000000010000000000010001
000000000001110000000000000000110000000000010101000000000001100100000000000100010000000000000110
000000000000010100000000000110010000000000000000000000000000111000000000000111010000000000001001
000000000001110000000000000001100000000000011010000000000000100100000000000100000000000000011000
000000000000100100000000000011100000000000000000000000000000101000000000000010100000000000000000
000000000001101000000000000010010000000000001001000000000000100100000000000000000000000000001101
000000000001110100000000000110010000000000011010000000000001100100000000000011110000000000011010
000000000001100000000000000001010000000000011100000000000001010000000000000000010000000000011001
000000000001011000000000000100110000000000000010000000000001000100000000000011110000000000000110
000000000001101000000000000011110000000000000111000000000001001100000000000100110000000000001110
000000000001001000000000000011110000000000001110000000000001101000000000000110010000000000000010
000000000001001000000000000110110000000000001101000000000000100100000000000110010000000000000101
000000000001000000000000000011100000000000000011000000000001011100000000000111010000000000000001
000000000001100100000000000100110000000000010101000000000001000100000000000000100000000000001010
000000000001000000000000000010110000000000010110000000000001110100000000000010010000000000001000
000000000000110100000000000010000000000000010101000000000000010000000000000011010000000000001001
000000000001010000000000000100010000000000010000000000000000010100000000000001110000000000001111
000000000001000100000000000110010000000000000001000000000001000100000000000001110000000000001010
000000000000000000000000000010100000000000011010000000000001110100000000000001000000000000010110
000000000000100100000000000100010000000000011101000000000001011100000000000001000000000000011001
000000000001101000000000000100100000000000001110000000000000101100000000000110010000000000000110
000000000000110000000000000001110000000000001000000000000000111000000000000000000000000000011100
000000000000110100000000000000110000000000010101000000000001100000000000000100100000000000001101
000000000000010000000000000010000000000000000010000000000001000100000000000000100000000000000101
000000000000100100000000000010110000000000001011000000000001001000000000000001110000000000000111
000000000001001100000000000100110000000000000011000000000000000100000000000100100000000000011101
000000000001100100000000000001100000000000010010000000000001000100000000000010000000000000011010
000000000000100000000000000010000000000000001111000000000000101100000000000110010000000000011101
000000000001011100000000000110000000000000010011000000000000100100000000000001010000000000010011
000000000001000000000000000001100000000000010101000000000001111000000000000110100000000000000000
000000000000101100000000000111000000000000001111000000000000110100000000000110110000000000000011
000000000001110000000000000101000000000000001001000000000001100100000000000111000000000000010110
000000000001100000000000000011100000000000011101000000000000100000000000000111010000000000010000
000000000001011000000000000111000000000000010110000000000001010000000000000101110000000000011001
000000000001101100000000000101100000000000001101000000000000100100000000000010010000000000001101
000000000001110000000000000100100000000000010001000000000001011100000000000010010000000000000000
000000000001100100000000000111010000000000000000000000000001110000000000000001100000000000011101
000000000001010100000000000110010000000000011001000000000000001100000000000111000000000000001001
000000000000011000000000000100100000000000001111000000000000100100000000000011110000000000011011
000000000001111000000000000001010000000000011100000000000001101100000000000000000000000000001010
000000000001100100000000000110010000000000000110000000000000010100000000000011000000000000011001
000000000001000100000000000000110000000000000010000000000000110100000000000000000000000000010001
000000000000111000000000000011010000000000001011000000000001110000000000000011000000000000011100
000000000000100100000000000110110000000000001100000000000001011100000000000101010000000000011001
000000000000111000000000000011110000000000001111000000000000110000000000000111100000000000011001
000000000001100100000000000111000000000000000100000000000001101100000000000001100000000000010101
000000000001000100000000000001110000000000000011000000000001001100000000000011100000000000010001
000000000000110100000000000110110000000000001001000000000000000000000000000011010000000000011110
000000000000011000000000000110010000000000011110000000000001011100000000000101000000000000001010
000000000001111000000000000001100000000000000101000000000000100000000000000111100000000000001000
000000000000011100000000000101110000000000000100000000000000101100000000000110110000000000000101
000000000000010000000000000010110000000000000110000000000001000000000000000001110000000000011000
000000000001100000000000000000010000000000011110000000000000101000000000000011000000000000011010
000000000000111000000000000100110000000000000110000000000000111000000000000111010000000000000110
000000000001101100000000000010000000000000000010000000000000010100000000000100100000000000001101
000000000000101100000000000100010000000000010100000000000001001000000000000101110000000000011100
000000000001000000000000000100100000000000001000000000000001001100000000000001010000000000011101
000000000000101000000000000100010000000000000001000000000000111000000000000011000000000000001111
000000000001101100000000000011010000000000001101000000000000111100000000000001110000000000001111
000000000001011100000000000011110000000000010111000000000001100100000000000110000000000000001101
000000000000011000000000000100010000000000001001000000000001101000000000000100110000000000000010
000000000001110100000000000001110000000000000111000000000000101000000000000000010000000000000010
000000000000010000000000000101100000000000001111000000000000010000000000000011110000000000011011
000000000000011000000000000101100000000000010000000000000001111000000000000001110000000000001110
000000000001000100000000000100110000000000000010000000000000100100000000000111100000000000001101
000000000001011100000000000111010000000000001101000000000001110000000000000101010000000000010110
000000000001110100000000000011100000000000010101000000000000110100000000000100100000000000001110
000000000000001000000000000000110000000000000001000000000000001000000000000110110000000000000001
000000000001011000000000000110110000000000011011000000000000101000000000000100100000000000000111
000000000001110100000000000011110000000000001000000000000000000000000000000000100000000000010101
000000000001000100000000000100110000000000010000000000000000100000000000000000000000000000010101
000000000000111000000000000101010000000000001011000000000001001100000000000001000000000000010011
000000000000110100000000000011110000000000011001000000000000000000000000000010100000000000010011
000000000000101100000000000011010000000000000010000000000000011000000000000000000000000000001010
000000000001000000000000000001110000000000000010000000000001110100000000000101110000000000010101
000000000001011100000000000000100000000000000101000000000000100100000000000010100000000000011011
000000000001000000000000000010110000000000000001000000000001110000000000000111100000000000001000
000000000000001000000000000101110000000000011100000000000000000000000000000100000000000000001110
000000000001100100000000000100110000000000001100000000000000101000000000000011110000000000000001
000000000000011100000000000011100000000000010001000000000000011000000000000011000000000000010001
000000000001110000000000000111100000000000000010000000000000011100000000000000110000000000011001
000000000000111100000000000100000000000000000111000000000001100100000000000111000000000000010011
000000000000110100000000000001000000000000001000000000000001000000000000000100100000000000001000
000000000000101100000000000000000000000000010011000000000000111100000000000001110000000000010000
000000000000000000000000000011110000000000010011000000000000011100000000000000110000000000001011
000000000001111000000000000110110000000000001010000000000001110100000000000101110000000000011011
000000000000010000000000000111000000000000011110000000000000101100000000000111000000000000010001
000000000000111100000000000101110000000000010011000000000000001100000000000010110000000000000011
000000000001110100000000000011010000000000011010000000000001010100000000000101100000000000001110
000000000001110000000000000101110000000000001010000000000001110000000000000101010000000000001011
000000000000000100000000000101010000000000000011000000000001001100000000000110000000000000010110
000000000000111000000000000100000000000000010000000000000001001000000000000011110000000000011101
000000000000010100000000000010010000000000000010000000000000110100000000000010000000000000011010
000000000001111000000000000001100000000000010111000000000000111000000000000000000000000000001001
000000000000100100000000000001110000000000011100000000000000011100000000000100110000000000011000
000000000000100000000000000110000000000000000000000000000000010100000000000000100000000000000000
000000000001110100000000000110000000000000000010000000000001011100000000000001010000000000010010
000000000001110100000000000010100000000000000001000000000000101100000000000001100000000000001101
000000000000110000000000000010010000000000011100000000000000111100000000000111100000000000001010
000000000001001100000000000011010000000000000010000000000000000000000000000000010000000000001001
000000000000101100000000000001000000000000010011000000000000100100000000000011000000000000000100
000000000000010100000000000100010000000000000000000000000001011000000000000110000000000000001111
000000000001000000000000000000010000000000010010000000000000011100000000000000000000000000010100
000000000001100100000000000001000000000000010010000000000000110100000000000000100000000000001000
000000000001100100000000000110100000000000011101000000000000111100000000000100110000000000010010
000000000001110100000000000100010000000000011001000000000001110100000000000100110000000000011101
000000000000100100000000000010110000000000000000000000000001010100000000000111100000000000011101
000000000001000000000000000010100000000000010000000000000000010100000000000111100000000000010011
000000000001001100000000000100100000000000000100000000000000110000000000000011000000000000000010
000000000001010000000000000001010000000000010000000000000001100000000000000011110000000000000100
000000000001100100000000000111100000000000001111000000000000111100000000000001110000000000001000
000000000000001000000000000100010000000000011010000000000001111000000000000101000000000000000000
000000000001110000000000000110010000000000001110000000000001100000000000000100000000000000011011
000000000000001100000000000010110000000000001101000000000001001100000000000111100000000000010111
000000000001111000000000000100010000000000011100000000000001111000000000000010010000000000011100
000000000001101100000000000011010000000000001101000000000000111100000000000111000000000000011000
000000000000001000000000000100110000000000001100000000000001000100000000000001000000000000011011
000000000001000100000000000111010000000000010111000000000000100100000000000100000000000000000101
000000000000101100000000000011000000000000010000000000000000011100000000000101000000000000011010
000000000000110000000000000000100000000000001111000000000000010100000000000000000000000000010000
000000000000100100000000000011010000000000010110000000000001010100000000000010010000000000011010
000000000000010100000000000111000000000000010101000000000000010100000000000001000000000000010101
000000000000110000000000000111000000000000011000000000000001010000000000000110000000000000010100
000000000001011100000000000110110000000000011001000000000001010000000000000110100000000000000101
000000000000111000000000000011100000000000000110000000000001101100000000000010000000000000000110
000000000001010100000000000011100000000000001001000000000001110000000000000010110000000000010010
000000000000110000000000000001100000000000010011000000000000101100000000000001100000000000011010
000000000000101100000000000000110000000000000101000000000001111000000000000000110000000000010001
000000000000011100000000000001010000000000010001000000000001100100000000000111100000000000000101
000000000000000000000000000011110000000000000011000000000001100100000000000101010000000000000101
000000000000101100000000000000110000000000011110000000000001101100000000000111010000000000011011
000000000001101100000000000111100000000000001101000000000000101000000000000000110000000000001110
000000000000100000000000000000000000000000010100000000000000100100000000000101110000000000000000
000000000001000100000000000110010000000000011110000000000000110100000000000110010000000000010111
000000000001010100000000000001100000000000000010000000000000100000000000000100110000000000010111
000000000000011100000000000111100000000000011110000000000001001100000000000011000000000000010001
000000000001100000000000000100010000000000001001000000000000011100000000000000100000000000000001
000000000001111000000000000000000000000000011110000000000000000000000000000010000000000000010110
000000000001110000000000000101100000000000000010000000000000001100000000000011100000000000001010
000000000001101000000000000010110000000000010001000000000001101100000000000010110000000000000010
000000000001110000000000000000010000000000000011000000000000000000000000000010100000000000000110
000000000000010000000000000101010000000000000000000000000000010100000000000000010000000000010101
000000000000000000000000000110000000000000000100000000000000011000000000000000010000000000010001
000000000000111100000000000111100000000000010111000000000001100000000000000001010000000000011010
000000000000101100000000000101110000000000010011000000000001101100000000000101100000000000001010
000000000000000100000000000011110000000000001100000000000001101100000000000011010000000000010000
000000000000000100000000000101000000000000001111000000000001011100000000000111010000000000001100
000000000000010000000000000000010000000000010100000000000000101000000000000110010000000000001111
000000000001111000000000000001110000000000000000000000000001101100000000000101010000000000001100
000000000000001100000000000100100000000000010101000000000000111000000000000110110000000000010001
000000000001100100000000000001110000000000000111000000000001101000000000000100110000000000011110
000000000001011000000000000000000000000000001010000000000000001000000000000010000000000000000101
000000000000010000000000000011000000000000011010000000000000100100000000000110010000000000011011
000000000000001000000000000001100000000000010010000000000000001000000000000111100000000000001101
000000000001100000000000000011100000000000001111000000000001100000000000000100100000000000001000
000000000000001100000000000111100000000000010100000000000000011000000000000110000000000000000100
000000000000110100000000000010110000000000010001000000000000001000000000000100100000000000001001
000000000000011100000000000010000000000000011101000000000001100100000000000110110000000000000111
000000000001101000000000000101010000000000010110000000000000111100000000000110000000000000001000
000000000000110100000000000111000000000000001011000000000001001100000000000110000000000000011100
000000000001000100000000000010010000000000001011000000000000010100000000000000100000000000000011
000000000001011100000000000000010000000000010000000000000001110000000000000100000000000000001110
000000000000001000000000000011010000000000011010000000000001110000000000000011110000000000011011
000000000000100100000000000001100000000000010001000000000000010000000000000101010000000000001000
000000000000110100000000000110110000000000001101000000000001100000000000000100110000000000001001
000000000001011000000000000010000000000000001000000000000001001100000000000000100000000000010011
000000000001111000000000000010010000000000001011000000000000110000000000000101010000000000011011
000000000000111000000000000001000000000000000100000000000001100000000000000100100000000000000000
000000000001010100000000000100000000000000010001000000000000110100000000000101000000000000011000
000000000000001100000000000101110000000000010011000000000000010100000000000101110000000000001001
000000000000011000000000000000110000000000001001000000000001110000000000000001000000000000000011
000000000000011000000000000001010000000000010101000000000000110000000000000010010000000000001001
000000000001011000000000000110110000000000010001000000000000100000000000000111000000000000011000
000000000001110100000000000111000000000000000000000000000001101000000000000111010000000000010100
000000000001011000000000000011010000000000011011000000000001100000000000000100100000000000010100
000000000000011000000000000101100000000000010000000000000000101100000000000000100000000000001010
000000000000001100000000000110010000000000011001000000000000110100000000000000010000000000011110
000000000000011100000000000101010000000000001111000000000000100000000000000000000000000000011100
000000000001011100000000000101000000000000000001000000000001011100000000000010000000000000001001
000000000001010100000000000011010000000000000000000000000001000100000000000011000000000000001011
000000000000100100000000000111010000000000011001000000000001101100000000000010010000000000011100
000000000001110000000000000010100000000000011101000000000001100100000000000000110000000000001111
000000000000101100000000000110100000000000011110000000000000001000000000000011010000000000011110
000000000000001000000000000011100000000000000001000000000000111000000000000100110000000000010111
000000000001001000000000000001100000000000001101000000000000011100000000000000110000000000000011
000000000001011000000000000011110000000000001110000000000000110000000000000111010000000000001101
000000000000100100000000000111100000000000011101000000000001110100000000000101100000000000000101
000000000001011000000000000010110000000000010110000000000000110000000000000001010000000000010101
000000000001011000000000000111000000000000011011000000000001110100000000000110110000000000010111
000000000001010100000000000011110000000000000110000000000000110100000000000001100000000000001101
000000000000010100000000000100110000000000011010000000000000101100000000000111010000000000001001
000000000000111100000000000111010000000000010001000000000001101100000000000010110000000000000110
000000000001010000000000000000100000000000000000000000000000100100000000000110100000000000000111
000000000000110100000000000010000000000000011001000000000001001000000000000000100000000000000101
000000000001011100000000000000100000000000001000000000000000100100000000000101000000000000010001
000000000000010100000000000011110000000000001010000000000001111000000000000100000000000000000000
000000000000111000000000000100100000000000011011000000000000101000000000000100110000000000010111
000000000001001100000000000110110000000000010111000000000001011000000000000110100000000000010001
000000000000101100000000000010000000000000001110000000000001010000000000000101110000000000001010
000000000001110000000000000010000000000000000011000000000000101100000000000111010000000000010000
000000000000111100000000000000000000000000010100000000000001101100000000000011000000000000000011
000000000001000100000000000110100000000000000001000000000001001100000000000101000000000000000000
000000000000110100000000000010100000000000011110000000000000110100000000000101110000000000001010
000000000001100100000000000010010000000000011100000000000000101100000000000100110000000000001101
000000000001100100000000000000010000000000010111000000000001000100000000000100000000000000011001
000000000001101000000000000111000000000000010010000000000000100100000000000101000000000000001110
000000000000001100000000000110100000000000011000000000000000000000000000000000010000000000001001
000000000001110100000000000100110000000000000000000000000001001000000000000010100000000000010001
000000000001011000000000000110100000000000011000000000000001101000000000000111010000000000001001
000000000000010100000000000011110000000000000110000000000000010100000000000010000000000000011010
000000000001100100000000000010100000000000000101000000000001111000000000000001010000000000000011
000000000001011000000000000010110000000000011000000000000001011000000000000011110000000000001111
000000000001101000000000000111000000000000001010000000000000001000000000000110000000000000000101
000000000000111000000000000100010000000000010011000000000001001100000000000010000000000000011101
000000000001001000000000000000010000000000011101000000000001100100000000000101100000000000011001
000000000001111000000000000001000000000000000000000000000000101100000000000100000000000000001001
000000000000010100000000000111010000000000001001000000000000011100000000000001010000000000000010
000000000000111100000000000101100000000000011001000000000001011000000000000100000000000000001111
000000000001010000000000000110100000000000000101000000000001110000000000000011100000000000000101
000000000001010100000000000010000000000000001110000000000001011100000000000011100000000000010001
000000000000110000000000000110010000000000011100000000000000000000000000000001000000000000001001
000000000000110100000000000110100000000000010010000000000001110000000000000111010000000000001110
000000000001100000000000000001000000000000010011000000000001011100000000000101010000000000001011
000000000000011100000000000010100000000000010010000000000001001100000000000110010000000000001011
000000000001111000000000000011110000000000001111000000000000110000000000000100010000000000001111
000000000001011100000000000110010000000000001001000000000001110000000000000000110000000000001111
000000000001001100000000000101010000000000001000000000000001001100000000000110010000000000000011
000000000000111100000000000101100000000000001100000000000000010100000000000010000000000000001000
000000000000111100000000000100110000000000010001000000000001000000000000000111010000000000001000
000000000001100000000000000011000000000000000001000000000001001000000000000000010000000000010101
000000000001100100000000000000010000000000010000000000000000111000000000000000110000000000000101
000000000000101000000000000110000000000000000011000000000001001000000000000100000000000000001010
000000000001011000000000000000100000000000000111000000000000000100000000000011100000000000001101
000000000001001100000000000110110000000000010000000000000001001100000000000010110000000000000010
000000000001000000000000000110010000000000010011000000000000010000000000000101010000000000000110
000000000000100100000000000000100000000000010001000000000001111000000000000001010000000000011010
000000000001111000000000000000010000000000010011000000000000010100000000000100000000000000000001
000000000000001100000000000010100000000000000101000000000001011100000000000100010000000000011011
000000000000001100000000000110010000000000010000000000000000111000000000000110110000000000000011
000000000000000000000000000101010000000000001100000000000000111000000000000101000000000000011101
000000000001111000000000000000010000000000001100000000000001010000000000000110110000000000011000
000000000001011100000000000100110000000000001001000000000000110000000000000011110000000000010100
000000000000000000000000000100100000000000000110000000000001111000000000000010100000000000000100
000000000000011000000000000010110000000000001010000000000000011100000000000101000000000000011010
000000000000011000000000000001000000000000001111000000000001110000000000000011110000000000001000
000000000000111000000000000100000000000000011000000000000001011000000000000001010000000000011011
000000000001000100000000000000100000000000011011000000000000100100000000000110010000000000001101
000000000001100100000000000010000000000000001001000000000001100000000000000000110000000000010101
000000000000010000000000000110100000000000011101000000000001010100000000000010100000000000011000
000000000001001000000000000101000000000000001110000000000001110000000000000010110000000000000001
000000000000011100000000000000010000000000010000000000000000100000000000000001100000000000000110
000000000001110100000000000000110000000000010101000000000001010000000000000001110000000000001000
000000000001000000000000000010100000000000010000000000000000001100000000000001000000000000011010
000000000000101000000000000000100000000000010111000000000000100100000000000101110000000000011100
000000000001100100000000000010000000000000010110000000000001110000000000000100010000000000011001
000000000001011000000000000111100000000000000111000000000001100000000000000000000000000000001110
000000000000000100000000000110100000000000001111000000000001011100000000000110010000000000001101
000000000001011000000000000001000000000000010010000000000000000100000000000110110000000000001000
000000000000011100000000000010100000000000001011000000000001101100000000000100000000000000011101
000000000000010100000000000111100000000000000010000000000001000000000000000100100000000000011010
000000000001100100000000000011110000000000001111000000000001001000000000000001110000000000010110
000000000001001000000000000000100000000000001010000000000001011100000000000100000000000000000111
000000000000001100000000000100000000000000000010000000000000101000000000000011110000000000010010
000000000001101100000000000110110000000000000001000000000000100000000000000101110000000000011110
000000000000111000000000000100110000000000011001000000000001001100000000000001100000000000001001
000000000000001100000000000110010000000000000010000000000001010000000000000110100000000000010000
000000000001110000000000000011010000000000000110000000000000111100000000000011110000000000010000
000000000001110100000000000100110000000000000010000000000000010000000000000011000000000000011101
000000000000100100000000000000110000000000000111000000000000011000000000000011010000000000011001
000000000000011100000000000011110000000000010011000000000001101000000000000110110000000000000011
000000000001000100000000000011000000000000011011000000000001010100000000000111010000000000011100
000000000000111000000000000011110000000000001111000000000001101100000000000011000000000000000000
000000000000100000000000000101110000000000001100000000000001000100000000000101010000000000000110
000000000001001100000000000101100000000000000010000000000000010100000000000011010000000000011110
000000000000011100000000000001110000000000011011000000000000011000000000000001000000000000010110
000000000000001100000000000101010000000000001011000000000000000100000000000000100000000000010001
000000000001110000000000000110000000000000000001000000000001011000000000000011100000000000010001
000000000000010100000000000111100000000000011100000000000000100100000000000100100000000000000100
000000000000100100000000000110100000000000000110000000000000110100000000000001010000000000011000
000000000001011100000000000111010000000000001110000000000000100100000000000110100000000000000101
000000000000110100000000000000000000000000001010000000000000101000000000000110000000000000011000
000000000001001000000000000100100000000000011101000000000001010000000000000010110000000000011100
000000000001011000000000000100000000000000001000000000000001001100000000000010100000000000000100
000000000000101000000000000110000000000000000011000000000001111000000000000110100000000000001110
